00010100
11111110
11111011
00100001
11110010
00000011
00011011
00010000
00000001
00010110
00100000
00100000
00001010
11110010
00010010
11010111
11011101
00000000
00010001
11110100
11100101
11101001
11101110
11011010
11100000
11101101
00000001
00000011
11110110
00011110
00010111
00110011
00000000
11110110
11101100
11010110
11110011
11011000
11111110
11101101
00000111
11111010
00000101
11111111
11111110
00000101
11110111
00010000
11111101
11111011
11110011
00001110
00001110
00101101
00111110
00111010
11110111
11011001
11111010
00000000
11110000
11011100
00000100
00011011
11101010
00000011
00011011
00010000
00011100
00000111
00101000
00000001
00010001
00111010
00111010
00110101
00111011
00111001
11110010
00010011
11111101
11101111
11011100
00000010
00110101
11100101
11100010
11101100
00000000
00101100
00100111
00101001
00000110
11111000
11110101
11111000
11110110
00110110
00010000
11010101
00110101
00000000
11111010
00101110
00110101
00000101
11101010
00100110
00000110
11111000
00101001
11111001
00010100
00010111
00101100
00111000
00111000
00010001
11110111
00000000
11111010
00011000
00011111
11101111
00000010
11110000
11110111
00010111
01000010
01000110
11001011
11101001
11101000
11110110
10101111
11100111
00101100
00100010
00000011
11111110
11010001
00111100
10010011
00101000
00010011
00000001
11111100
11110100
00111110
00110100
10101000
11000010
11010010
11100100
10101111
10110010
11100111
11001111
00000110
11000110
11011001
11100010
11110000
11110111
00000000
00010011
11110110
10111111
00101000
01001110
00001101
11101010
00111101
00111001
00111011
00100110
11110011
11110000
00101010
00011011
11010010
11010111
00000011
00010000
00011110
11111000
11110111
11001111
00100001
11111000
01010100
00100011
00000001
00001100
00111010
11101011
01000011
00101101
01100010
00110010
11010011
11011101
11011011
10111011
00001101
00000001
11011100
10100101
00010110
00000110
11000011
11011010
11101111
00000000
00100100
00100101
00011010
11010110
00010110
01011001
00000101
00010010
11101001
11100111
00000110
11110110
11001000
00110110
00110100
01000101
11101011
00001010
01000101
01010010
11001111
00011111
11001000
01010010
10111111
10100000
11001011
00000100
00000000
00001101
10011111
00000010
11111101
11010000
10101011
11000111
01000100
11101111
11110001
00001001
00111001
00111111
11110101
11101111
00010111
11110101
11110010
10111010
11101110
00111111
00101000
00011001
11111011
00011001
11011100
10000110
00101000
11110111
00010000
00100000
00000011
00010100
11100010
00100101
01000010
00101001
10101110
11000010
00011111
11101010
11110010
11010100
11110111
00111100
00010011
00010000
11110110
11010101
11111111
11110101
00000000
11110000
00000000
11110111
11101001
11110010
00001100
00000101
00000110
11111000
